:04000000FFFFFFEE11
:04000100FFFFFF4DB1
:04000200FFFFFFFD00
:04000300FFFFFFF705
:0400040000000049AF
:040005000000006295
:04000600FFFFFFCC2D
:04000700000000589D
:040008000000008B69
:04000900000000F5FE
:04000A000000011BD6
:04000B0000000141AF
:04000C0000000119D6
:04000D00000000C52A
:04000E00000000648A
:04000F0000000138B4
:04001000000000F6F6
:04001100FFFFFF9856
:04001200000000806A
:04001300000000D514
:040014000000006880
:04001500FFFFFFD515
:040016000000008660
:04001700000000E401
:040018000000012AB9
:00000001FF
