:04000000000000C03C
:04000100000000C13A
:04000200000000A456
:0400030000000043B6
:0400040000000104F3
:04000500FFFFFF7684
:040006000000002BCB
:04000700000000CB2A
:04000800000000CD27
:0400090000000105ED
:04000A000000005999
:04000B00000000BC35
:04000C0000000112DD
:04000D000000019B53
:04000E00000000D21C
:04000F00FFFFFEE20F
:04001000FFFFFFE20D
:0400110000000008E3
:04001200FFFFFF935A
:040013000000007D6C
:04001400FFFFFDD419
:04001500FFFFFCAB42
:04001600FFFFFD8566
:04001700FFFFFE6386
:04001800000000578D
:00000001FF
